/**
  ******************************************************************************
  * @file    network_data.c
  * @author  AST Embedded Analytics Research Platform
  * @date    Thu May 18 21:15:52 2023
  * @brief   AI Tool Automatic Code Generator for Embedded NN computing
  ******************************************************************************
  * @attention
  *
  * Copyright (c) 2023 STMicroelectronics.
  * All rights reserved.
  *
  * This software component is licensed by ST under Ultimate Liberty license
  * SLA0044, the "License"; You may not use this file except in compliance with
  * the License. You may obtain a copy of the License at:
  *                             www.st.com/SLA0044
  *
  ******************************************************************************
  */
#include "network_data.h"
#include "ai_platform_interface.h"


AI_ALIGNED(32)
const ai_u64 s_network_weights_array_u64[ 937 ] = {
  0xbe89d9423eb770c5U, 0x3ef62e5e3e81c1a5U, 0x3d2755603e10e0f5U, 0xbec04e1b3e9fb123U,
  0x3e9788543cc8cb39U, 0xbdabc67bbc36eb73U, 0xbe515d603e24d69cU, 0x3f1d9366bcffff6fU,
  0xbdc7a37b3e85d75cU, 0xbea4bc3e3d9a44ceU, 0x3e9587a63e95dc7aU, 0xbdd2adf5be152b1eU,
  0xbe8deb533d1b6ef8U, 0xbe744f923d89bbb9U, 0xbe2dbf94beba985bU, 0x3da0eb9bbdab64f6U,
  0x3dd604b6be541044U, 0x3f1562b73e28008aU, 0xbd14360bbe9e970aU, 0x3e8c8df7be8ac865U,
  0x3e9589793e03bf29U, 0x3e9b1e0a3ece8325U, 0xbdbb6e6c3db0c5ebU, 0x3e01c18a3d7e0540U,
  0xbe89ef03bd606df6U, 0x3e38032e3e28f55bU, 0x3ed3b28bbea1fe9eU, 0xbe21f7133e1baf4bU,
  0xbe9df8d23eaa066dU, 0xbde25955bd5cc896U, 0x3ee3289a3dd730aeU, 0xbe3adebdbec807adU,
  0xbeeca7e73e2fe965U, 0x3e56b4a8bca10a1cU, 0x3ed32df4be048a6bU, 0xbd6e926a3ec05d20U,
  0x3de7e3363d9be1ccU, 0x3eac2db6be72489bU, 0x3ea67d643f0553f2U, 0x3ebd2e60be9b5ef7U,
  0xbea1ac72bedb916cU, 0x3efa78e93ec65da1U, 0x3ddfe8fbbc7cb086U, 0xbd85ab9fbe453a4dU,
  0x3f06b83b3ec7738cU, 0xbebe912cbe9534c3U, 0xbd84adb83e403eecU, 0xbed984d8bedf7ff6U,
  0xbe1eee3e3dc178beU, 0x3ee60722be81ad61U, 0xbe659f57bf29c1d4U, 0x3eb2b140bd9fa57fU,
  0x3de6491abdf7d64dU, 0xbedc0a7dbe89fe28U, 0xbd8f665a3c949cbcU, 0x3e91fa25be3cec4dU,
  0x3d826b57be709a69U, 0x3e1de62f3e0a2f47U, 0x3ee25f243e7036b5U, 0x3e520316be489967U,
  0x3e817312bc296719U, 0xbe38eab43e0e8f5eU, 0xbea9afd63e4f2e29U, 0x3e03c9dd3db103b4U,
  0xbd989e083e5066d7U, 0xbdb8c9933df1353aU, 0x3e7167fdbe0104edU, 0xbd98fb463e2938e7U,
  0x3d7f2d303dab8a45U, 0xbe6be7163b9ba71dU, 0xbeccf22fbe41ae79U, 0x3e44a4253ebeb383U,
  0xbe7c5029bda2fa8aU, 0x3c905e5b3e645aedU, 0x3cc57fc73ef41210U, 0xbe2750a33e5828baU,
  0x3ee2fba13e876894U, 0x3e8261bb3d8f8c34U, 0xbea3b9ce3c783dffU, 0x3da8a9523e54bc8aU,
  0xbe9643803c106ee7U, 0xbec977e63e96bc96U, 0x3e62bbae3f023a80U, 0xbf261836be99de1fU,
  0xbeefdbd0bcb38b41U, 0x3d92bbbc3d00e7bbU, 0xbf3c4392bf09ca53U, 0x3d736fa83f0c486eU,
  0x3ea894e63e806fc7U, 0xbf25509dbf1a6ac4U, 0x3d8c3215bd34efa4U, 0xbd9ccc703dce456eU,
  0x3f1ade603eb3157fU, 0x3e98d9d6bd2f1115U, 0xbecfc198bdaec5d9U, 0x3f22aca33e5fa3d4U,
  0x3e8bcfe53e9a7420U, 0xbea3acf93e22bd8fU, 0x3efd7be73dbfb679U, 0x3e6bce693eca1440U,
  0xbee469b7be543718U, 0x3e8a3d54bed55818U, 0xbd2785ab3e829016U, 0xbed0529cbebbba8dU,
  0xbe198092bf212e86U, 0x3ee01ca4be27df9eU, 0xbdf893533dbba8ecU, 0xbedb1ff4be236519U,
  0x3edd90673d51c301U, 0x3e1191a03dab63b3U, 0xbd7e5a7bbeb7bdecU, 0xbe1dd7003e6335ebU,
  0x3ed281fdbd45a919U, 0x3e5ca630bcce1341U, 0xbe83d319be841560U, 0xbdd7e7babf00518aU,
  0x3e8bfa9a3e61aadeU, 0x3efe62ec3e307983U, 0xbe905c69bb482e21U, 0x3ec59fb83eabdedfU,
  0x3da6a7d9bd867ff3U, 0xbd4232a4beb54fe9U, 0xbdd16ce2beb9558eU, 0x3e47470ebe7c1be3U,
  0x3e0235b3bea702daU, 0xbd72a869bed81a33U, 0x3d99aff03e3c0b4dU, 0xbbc1bb7f3e89f548U,
  0x3e767115beec5491U, 0xbe93e0763e8309adU, 0x3d177d333e595a76U, 0xbe47f2a6bee030fdU,
  0xbef09526bea02676U, 0x3dd87ed23e4ec54eU, 0x3dbab207be9edcceU, 0xbe672d653eca12f9U,
  0x3c6768803e90db75U, 0xbdaef9a13e267dd4U, 0xbe9a88583eb6190dU, 0x3de6f0a7bd493deaU,
  0xbe9716e43c8918b1U, 0xbe7110833ebfbe21U, 0x3e4d43223e58bd92U, 0xbdd1abf6bece0f0fU,
  0xbe5a34243e0e7fdeU, 0xbcda38d43e0c96ebU, 0xbdbaa811be552697U, 0xbe32b3fbbe92fdd1U,
  0x3d796b563e1c60e1U, 0xbe0d98c9be9d3738U, 0xbe2c4eb53e7fae67U, 0x3e41a195bd7142aeU,
  0x3e56bcc73e0176b4U, 0xbe001afc3d81baa8U, 0xbc9ee7c83d7c2f1cU, 0x3bb086093e81402fU,
  0xbdd90831be87fa9cU, 0xbd0fb9343d926802U, 0x3e056e343dd1744cU, 0x3935a10ebeb48dbcU,
  0x3e5d7bbbbdc468a2U, 0xbe291cb9be7fdacaU, 0xbdc09a6abe59705cU, 0x3e6d59e7bb27e72bU,
  0xbd65b468be97bebcU, 0x3d329e483dbd1471U, 0xbe1835703e33eb0eU, 0xbd5683743e33777dU,
  0x3dc8828cbe0ce644U, 0xbe45e8963e488009U, 0x3dc1862f3cc458f4U, 0x3e2e4f37be6229e1U,
  0xbe5ecb2e3def693fU, 0x3dfd9a173e39aa29U, 0x3bf84f76bcf2d73bU, 0xbe6be2333c8013eeU,
  0xbde7093a3e04fee3U, 0x3dffe718be944313U, 0xbe26d919bd981af0U, 0xbd8951a53e6a3bc9U,
  0x3db7eb47bc032cccU, 0xbd3556873ee5332fU, 0x3c40f76bbe00d7ceU, 0xbdab05063e971e8eU,
  0xbe83bebdbe7763f5U, 0xbe33d1d0bc6ba9b7U, 0xbe947b27bd85cfc5U, 0xbc9895bebd4e87f3U,
  0xbdeffb79bd6a8b1aU, 0x3daf8200bc1f056fU, 0xbdc751ec3d893fb1U, 0xbd3437f13e2072a7U,
  0xbe76c01ebec2579aU, 0xbcd09f483d87311fU, 0x3e08163e3e05c418U, 0xbe99f927be7574e0U,
  0xbe53c2a3bba5f575U, 0xbedd3154be28d23fU, 0x3eb09821bdc60481U, 0xbe2eb353bd50da56U,
  0xbe8ee142bd89060bU, 0xbec5c2843e8b7209U, 0x3e9af4cf3e687e8cU, 0x3db239283e69cf77U,
  0xbdc85d673e83ea0dU, 0x3e78849f3db5832eU, 0x3e92e9853ec061e2U, 0x3eef9d39be463dd2U,
  0xbe14f905be5eb2f9U, 0x3d68de6d3e9ed980U, 0x3e96f374be847f4eU, 0xbe0429253b8e607dU,
  0xbede3875be58fca0U, 0xbeba8b103b9daf38U, 0xbe00ed21be4b12c7U, 0xbd8af1fabd8a18b8U,
  0xbe36c9a23d62188eU, 0x3eb61274bbddd036U, 0xbe1d086d3e2923c7U, 0xbeb8fa453c3f6ea3U,
  0x3b5224b63ea7fa5fU, 0xbe9aeb603dcfc2eaU, 0x3dba09103e7f9b71U, 0x3e3cf54cbde9f737U,
  0x3e109fd73eb1b206U, 0xbe81c3363e279ecfU, 0xbcf0b9913c60758bU, 0xbe582157beb1cfc1U,
  0x3e8477813e65c47cU, 0xbd94db78bea57ab0U, 0xbe36079dbbe61e96U, 0xbd52b72e3c530e8aU,
  0x3dfbcc0ebe350494U, 0xbec2a1ec3da88e1dU, 0x3e42c8c5baef0a3bU, 0xbd727404bebbf287U,
  0xbe043aea3e74f473U, 0x3e774597bc1f1f87U, 0x3e263be3be987358U, 0xbde0088e3e3b192cU,
  0xbe03bdd63e36f74cU, 0xbd939eea3dbda2c4U, 0x3dbcbdca3e4d0266U, 0xbe1c892d3ee4b7a2U,
  0x3e3d6161bded6c2eU, 0x3e4bb298be09adf9U, 0xbcc94ababddb2d9cU, 0x3e0d93c3bc571f40U,
  0x3f01e48fbe9eba74U, 0x3e2a0e893d2b8d42U, 0x3eb24043be1df1a5U, 0x3e5b375abea33b32U,
  0xbd8f27313e2cc411U, 0x3cee6696bcb37e9cU, 0x3e9eb99bbe5e4e54U, 0x3d924ee23e8a643fU,
  0x3f373fec3c83e058U, 0x3e31eda03db7f6dbU, 0xbe16fe25bdc1e1c8U, 0x3eb4d233bedba64cU,
  0xbde264c2bd72392fU, 0xbb7db061bddcb080U, 0x3e9afcfc3ea8e481U, 0x3e2129f73e1a6165U,
  0x3eead0b9bd84b154U, 0x3e261e613c284648U, 0x3e81720ebe52edd0U, 0x3eebbdb2be17ff1eU,
  0xbe0deb633e80aa18U, 0x3d3799eb3e2d2219U, 0x3e50eb313c5c5521U, 0xbdad949c3e259145U,
  0x3e61c9583d8993e6U, 0x3c07708d3ebc345bU, 0x3e21e4dfbd87af85U, 0x3da7ff4abee58a6aU,
  0xbe53ea363e4a7108U, 0xbe399f623c7ce338U, 0x3e0a616b3d540b99U, 0x3da6e029be4cfe86U,
  0x3ed25d01be174d63U, 0x3e8b1fd63eeb31a0U, 0x3ede9714bdc054b6U, 0x3ef324c7bebc56b6U,
  0xbe0620cc3d459b0dU, 0xbe4775ce3de6b84bU, 0x3ea369343d95a625U, 0x3d0e84f339d26590U,
  0x3ded96963ef8c53dU, 0xbc04effb3e56223bU, 0x3ed94bb43d90525fU, 0x3e246ec4bd60eb32U,
  0x3ed492553def7463U, 0xbe90463abd9681d2U, 0xbc9dd0e33e02f0e6U, 0x3e891d67be5acf39U,
  0x3e06aaf53d888cceU, 0xbe7937b73eb941fdU, 0x3e9f239abe03e348U, 0x3e1a5b0e3e1b80e9U,
  0x3e66bc4abd26d955U, 0xbe1db54bbe2b2cc4U, 0xbe4a8e283d848a79U, 0x3eb8c03fbe10cd3cU,
  0x3ea8a7eb3eb22f97U, 0x3d8458c73dbb7caaU, 0x3e8df394be548ceaU, 0x3bd2bc52be1ad8afU,
  0x3d9d1dbf3e422a74U, 0xbe81cab7beaea30cU, 0x3d39f8883cc00c63U, 0xbd8d6c1ebabf9694U,
  0x3e10d6eb3eaa6d8eU, 0xbd210fbb3e2857cdU, 0x3e4386863db35690U, 0x3dfa99033d9259daU,
  0x3e845728bd022020U, 0x3de85f38be75313aU, 0xbbabd58b3c8da589U, 0x3e8d5cb6be2be813U,
  0x3e4ce69b3ecd2474U, 0xbe787ed83e1ee1e4U, 0x3eb89b47be9d49c2U, 0x3ed1cc213ef42e30U,
  0x3eca8aa43e13addcU, 0xbce1bbd1be46e417U, 0x3d96f4cabebec256U, 0x3dce33f2bdab10ccU,
  0xbe3554edbe205e4aU, 0x3c381b8abeb1d948U, 0xbd2481d23e567174U, 0xbc90f1bc3d6fb793U,
  0x3e0a51f13ee784d1U, 0x3d84add63d99bae3U, 0x3e2042ee3e4d89c9U, 0xbea533183e16dd2fU,
  0xbe380593bdfe5c8aU, 0x3e8aa9c9be803578U, 0xbea44a26be5ccb14U, 0xbe5b23623d3c2987U,
  0x3dc7d51d3eb58f89U, 0xbcf479763e0672feU, 0x3d80dc5f3ee8dc34U, 0xbe864e6d3e0248c5U,
  0xbdc07ba6bdf20b5bU, 0x3d464623bed50a92U, 0xbe2bceaebe847424U, 0x3dfa26f23ed7b074U,
  0xbe46569e3e26b933U, 0xbca4b3d53edae8cbU, 0xbde2f7aa3dbfbb60U, 0xbebcc3573dc0b7aeU,
  0x3c95ea2e3e0ca11eU, 0x3e8374e0bd14a8ccU, 0xbd4246323d1764f8U, 0x3de7a8e93ee06c1eU,
  0xbd821c9f3e7f9409U, 0xbdfb29563eabee82U, 0xbe00013b3ed0425aU, 0xbebd33ca3e2cc472U,
  0x3e475f423e0d5a1dU, 0x3e09a509bda42a7fU, 0xbe0df8013e106821U, 0x3de029353eef0b3aU,
  0x3dea9dd53ef9c91aU, 0x3e2c63a23e5669c0U, 0x3da9d0fc3ed23848U, 0xbdec91d93d864e42U,
  0xbe654ee8bee1aa8cU, 0x3cc26e003e8f29dfU, 0xbec9f3f43e96eeb2U, 0xbd99a6d6be3c03a9U,
  0xbf0017f2bda9a56fU, 0xbe9152dabea86487U, 0x3e41e3063da08bd3U, 0x3cafa9673f260958U,
  0xbe2b55d4bf02ba0aU, 0x3e661cd63e2a2d17U, 0xbe84973ebd5116ccU, 0x3d11579ebea87e3bU,
  0xbd811841be2f1ac9U, 0x3c9745f43d85c2dcU, 0x3e2c4b28bdb352a2U, 0x3d9ace133eb236caU,
  0xbe89ba93be740a34U, 0x3e964e9bbdc58dcfU, 0xbe88d3753e4f69feU, 0xbe2c72cabd6a7703U,
  0xbe875742be84eecaU, 0xbba352a93e6bdb50U, 0x3e5f461d3e115360U, 0x3e57a6e53e4041f4U,
  0xbddab3eebe87aa6aU, 0x3c1fed9e3cce7f1eU, 0xbeabbf123e15b0c3U, 0xbe9276b2be9354ffU,
  0xbe150336bd77cb5eU, 0xbd1eab653eb043e3U, 0x3e479d923cf2c436U, 0x3d51b2223de34990U,
  0xbd956af5bf00bb50U, 0x3d2108eb3d318567U, 0xbe86122bbdeedaddU, 0xbd673df6bed7f9a1U,
  0xbddac705bca1e414U, 0xbd9833c83e230775U, 0x3ea924ca3e15c46aU, 0x3e3461aabb418004U,
  0xbf0fbb1a3c4ea069U, 0x3d5d9446bee872c4U, 0xbf0cdd9dbe7cc58fU, 0xbe913d523da6d83eU,
  0xbbf61e2e3da9013bU, 0x3e17b6f33d4a16e5U, 0x3e428a803d9c48a6U, 0xbe1fcb6c3eb46661U,
  0xbe4a8156bdf69d66U, 0x3eb5ac3bbeaabc60U, 0xbeb8bc72bda0913dU, 0xbe2bf2663eb226a0U,
  0x3d031b0fbc3347ceU, 0xbe41df5c3d0e2bd0U, 0xbcdfbaa0bc925cffU, 0xbe7894833eab7a7bU,
  0xbe4ee24fbe26b96fU, 0x3ebff352beadef82U, 0xbd3949803e76bebaU, 0xbea550913e9fe4a5U,
  0x3e0eda713e0897d7U, 0x3c16c5213de454f2U, 0x3e0bc6ce3e9d0aacU, 0xbe4c9fd13c102dd8U,
  0xbe70fac7be178232U, 0x3de864c0be566914U, 0xbeb9d3f43ea62907U, 0x3dd32a353ecc801bU,
  0x3e51bcd93ea93921U, 0xbdf8994f3db01662U, 0x3d984ed43e22c38fU, 0xbe67931c3ed636e2U,
  0xbe8168c7bdea3a6aU, 0x3e86c5a8bddd1c13U, 0xbeac5308bd84be3eU, 0xbee3c40e3e2547a8U,
  0xbe639942bd99e286U, 0x3cf601de3e5ef729U, 0x3e6a47e53e4dbd81U, 0xbe2236283f08e313U,
  0x3ef1b06dbd845496U, 0x3de66ee3bdd1fb25U, 0xbf05ca6d3d9777a2U, 0x3e8095513e837b10U,
  0xbef5ba483dc107fbU, 0xbdfdeb3abc96941bU, 0x3e40a3743dd8e6edU, 0x3c5feb29be40a883U,
  0x3eae3d40bb5f992cU, 0xbe8f25213be3a1a2U, 0x3bb678eebc5d6f50U, 0x3d80da4dbe131123U,
  0xbe4c2a14bdbf4f06U, 0x3e1366a0bb21f3deU, 0xbe5cad1c3d3f5c67U, 0x3e78a2cdbe972de0U,
  0x3ed8e70a3e78fb0fU, 0x3e507741bd2ac1c2U, 0x3e722b90be325bbaU, 0x3ed626f1bc83c195U,
  0x3cd036d73e53a434U, 0xbea01bb8bc8b4017U, 0x3c3b43893e53ef62U, 0xbeafd08f3d620245U,
  0x3e6ab1993e9aea66U, 0xbdfd71e83df99caeU, 0xbe6588f93cf0c0e8U, 0x3e5d02313de10403U,
  0x3ec0a8fd3ea71c51U, 0xbe00d4bd3c4d7e56U, 0x3e3a96933e0e12ebU, 0xbd5d0642be828fa4U,
  0x3de0cce93d5a71f7U, 0xbe9e0ed0be22cf64U, 0x3e847fb9be95fdeaU, 0x3e558354be3e564bU,
  0x3da003213e339d25U, 0x3dcb0f673e552254U, 0xbd01200dbd5062d7U, 0xbd6b1a1dbdc5af10U,
  0xbe6760a3bd8febc6U, 0xbdaca9853e8ce00aU, 0x3d04dba93c36bd74U, 0xbe18d854bda77b42U,
  0x3c9d65dabe89e7abU, 0x3e3ae58cbe486ee5U, 0x3dfaa297be8efb2eU, 0x3e8d13d2bce45427U,
  0xbec75eafbdf7021dU, 0xbe8fdea83eb7cfc3U, 0x3ead960d3e759c4cU, 0xbe5d6305be75736eU,
  0xbde00bd0bede1b96U, 0xbd97fd32bdea8546U, 0x3e14fe0abc5d7e51U, 0x3e44b6503d6849a8U,
  0xbe220ce4bd969a09U, 0xbef019683e59e4feU, 0x3e3b414d3ea15f3cU, 0xbe5e1a79be4f00e1U,
  0xbe3759bcbee7f658U, 0x3e4bc86cbe2b76eaU, 0x3c70ca0bbcdd5098U, 0x3cb82fc93e219137U,
  0xbe875f723e04d675U, 0xbea8910a3e962c21U, 0x3dafb3923ddb0565U, 0xbec24e62bdc77c09U,
  0xbd064b6cbeb4d4b4U, 0x3d850557be4826d8U, 0xbe07fc81bebf5cdaU, 0x3ebb91a03cbf3b4aU,
  0xbed8889bbe460633U, 0x3d9ccc653de8ff89U, 0xbdcb265b3e927caaU, 0xbe97b1d9be9c5fcbU,
  0x3df86fdfbef6ca08U, 0x3ee5442dbd6a8462U, 0xbe10b239beab0944U, 0x3e7b355ebdc0f761U,
  0x3ebed3a8bebea363U, 0x3ef02c8e3eb70ed0U, 0xbd7016dbbcadafe1U, 0x3dc41b61bf07ec9eU,
  0xbdceec95bd3fb7c6U, 0xbe3ec854be4b7735U, 0x3ec43640bdb7eb2aU, 0x3e1ef8753e63d2a9U,
  0x3efa1189be08f641U, 0x3e70b1843eb2462dU, 0x3e6ddd1ebdc939efU, 0xbdc262cbbec75e1dU,
  0xbd025a4a3cc4083eU, 0xbe1359153e6d6b00U, 0x3e8808e73e120632U, 0x3eaa2d3b3d78276dU,
  0x3ea6b77fbe51f61dU, 0x3e5008183dded596U, 0x3e23b8fabe4423dfU, 0x3c838b58bed9b253U,
  0xbe2977fe3e0c617dU, 0xbe4b66eb3d40911aU, 0x3ecaf3923e5888b7U, 0xbdc3d7e13d9fcbceU,
  0x3df194d13dbfc9e6U, 0x3e9b567e3e641c76U, 0x3deaa095bd74e6c7U, 0x3ecd302cbeaa723aU,
  0xbe1e20d2be7bdde2U, 0xbe762ffb3d582322U, 0x3e7e51263e5c62e1U, 0xbdba8eabbd20a934U,
  0x3dc0e1ab3da5b9afU, 0x3d1089943ee9d652U, 0x3cbc81833ceec3efU, 0x3ee49886bef66c32U,
  0xbe24f29abc19a0faU, 0x3e43932d3e899ed0U, 0x3eadf4363de7a853U, 0xbd250a763e6a2cb1U,
  0xbdd45422be6114adU, 0xbe067efabd86d2b7U, 0xbdffdfcf3db0d91cU, 0xbe44603e3e5b3e66U,
  0xbcf0df283c461b75U, 0xbed78430beb92230U, 0xbe8c1ff2bf018749U, 0xbea2f1593ed2bb8fU,
  0x3ec34f3fbeb3cc2dU, 0xbdb7de15bee67c1cU, 0xbedd88a0bf03210fU, 0xbe95fc0b3e26f40fU,
  0x3eb8e6c0bf02458eU, 0x3c581264bec84ed8U, 0xbf03fc0abee39ae9U, 0xbee59d1c3e0766cfU,
  0x3ecd46813c93ef8bU, 0xbe8306033e23684cU, 0x3e08d6e93e55570dU, 0x3d6c0be4be86242fU,
  0x3eeda9adbe011289U, 0xbe3234613e9400beU, 0x3e410705bdbd9539U, 0x3b1df037beba22deU,
  0x3f14424dbe53827eU, 0xbd4de6fe3e96fd46U, 0x3e5889953e8d91f7U, 0x3de084d7bce74e10U,
  0x3d051268bd81d26cU, 0x3ea0aa95be323bbcU, 0xbf21305abdf8f3b5U, 0xbe2d20473f3c16a3U,
  0x3e670b40bd8bce0eU, 0x3ec49d1f3de713d2U, 0xbe84f734bdc1adaaU, 0x3e03e9463f40415aU,
  0x3e7e33ef3e141850U, 0x3eb3d1613d8bdf6bU, 0xbef541a6bdea092cU, 0x3e74cc843f156b4aU,
  0x3dd9b2733dafe248U, 0xbc4305203f2e8f14U, 0x3f11a3843f13c612U, 0xbda6d588be15c471U,
  0xbc141a093ef191c3U, 0xbe76051c3f0bd2aeU, 0x3f3a17e83ef3e62cU, 0x3e60ede6bcdb9f19U,
  0x3ed27b1cbdd478d7U, 0x3e74208e3cc09741U, 0x3f29e5383f0c5603U, 0x3d907a88bd9e4031U,
  0x3e167f47bed74eb1U, 0xbed3b5f73cf1eb72U, 0xbeac2714bd72f829U, 0xbed41726bbad1c92U,
  0x3ea38d1dbeef94a0U, 0xbc8d06283e3c8ab6U, 0xbdc3c47ebebc03cbU, 0xbdc20a943e23b513U,
  0x3ecef352bef18200U, 0xbe88e0c4be58ab96U, 0x3e228416bef24a57U, 0x3e4285763e17ef8cU,
  0x3f1a21cebc1dd605U, 0xbe9db549be2bee51U, 0xbede93edbeb4b359U, 0x3e5f0dde3eaa6af7U,
  0xbdcf720abee71bc6U, 0xbea2572abe7ea143U, 0xbef4cf7cbe2906b6U, 0x3d9325923eaee9a9U,
  0x3dbe6e92be11104eU, 0xbeeccd3ebe8bec91U, 0x3e612911bdc98094U, 0xbec9fcb43e62860aU,
  0x3f0ee96b3d608bcbU, 0xbe9abd103d2e9d99U, 0x3f145eb4be57722cU, 0x3dc3262d3e66f52dU,
  0x3f110ba4be8df210U, 0x3da668173bc6ce23U, 0x3d95fc4bbef1fbaaU, 0xbd27710c3cf714b9U,
  0x3f0972123e784226U, 0xbe53561e3e0caa0cU, 0x3f0f99c33cd209daU, 0x3d5993f1bdc7857fU,
  0xbd145b59be3ceab0U, 0xbec23ae93ee4d2c7U, 0x3f1aea4f3eb6ff51U, 0xbe43d075be843f76U,
  0x3d64ba2fbe3911f3U, 0xbefdce663ee85726U, 0x3e9ac4823f07d8e7U, 0xbeb4a82dbe5e3f25U,
  0x3e84b4bdbe79786dU, 0xbdf7ea9a3f0b2d7eU, 0x3e8b59943eb21b67U, 0xbed24872becf372cU,
  0x3e8ce5ecbe2de751U, 0xbf0707ca3c9896c3U, 0x3def05313df296bfU, 0xbf0036563e3a47edU,
  0x3efe8370bedc5844U, 0xbee84561bdfa112aU, 0xb9ee9b793ecb29a6U, 0xbee1fe67bd00313fU,
  0x3ecbb5abbeb4c8feU, 0xbebffece3e4d5044U, 0xbd0d5ff13ea49429U, 0xbec9e5dfbb7cba7eU,
  0xbcf6dba6bee91a3dU, 0xbef59b443e74e5e9U, 0xbe9678cdbecbd820U, 0xbd71af143ed9514cU,
  0xbe940c99bea9f4aeU, 0xbee82ee4be6054c9U, 0xbe9d8969bebb054cU, 0xbec0f9a23eb21ca2U,
  0x3eab10493d2f41a1U, 0xbe394f3b3e0215a1U, 0xbe78053abe7df505U, 0xbf06dbf23f051e12U,
  0xbe9f274c3d11b919U, 0x3e5b08773e9d9fd8U, 0xbe9cede53ed89fd3U, 0xbe47cf133dd1472cU,
  0xbed0c45cbad29db2U, 0x3f05edbd3ee9b1baU, 0xbd919c403f2e975cU, 0x3e58fea23d1803e2U,
  0xbe9579023db37482U, 0x3f0f6fa33cfc854cU, 0xbea1c8163f29f40fU, 0xbc83f9f13f093e46U,
  0xbf30d9843dd5589bU, 0xbcb024f5bdffa085U, 0xbf17bcbcbe48b874U, 0xbd98a6023ebda196U,
  0xbd300def3db1db9fU, 0x3e9a8ceebd6cba13U, 0xbe3843f63c99d5c1U, 0xbd8b749c3f1bacabU,
  0xbf30afffbd4adf12U, 0xbe01a383bdbab11bU, 0xbe2d2e2abe6114d3U, 0x3def79cf3ec56c6cU,
  0xbe303d7b3ebb2160U, 0xbe0d39d93c5fdc39U, 0x3ecc51cabe437a22U, 0x3d2dc325bdb6aaabU,
  0x3f0dd32a3e1ebe33U, 0xbdcea3babe4bcbdfU, 0x3e94a77fbe49d387U, 0xbe0e09b43e936ef4U,
  0x3e00f24fbe753e19U, 0xbe58e5d63cac5f98U, 0xbe6b452ebf0336a7U, 0x3b9d38a3bc901b3cU,
  0x3d295e493f0110e5U, 0x3ed586a23ecc093bU, 0x3ed4ac0bbe2c979cU, 0x3e86d6933cc42e0cU,
  0x3e0eb2d63ef5f08eU, 0x3f10db853e382369U, 0x3e5614e13dcc5868U, 0x3e8256f13e1d2b0fU,
  0x3d881d833eb75701U, 0x3dffbd3a3dd6c90aU, 0x3da67987bd1dc8afU, 0x3dc736ef3e9fe752U,
  0xbebb2a503da57be9U, 0x3d9cf40ebe457e64U, 0x3dcfe1d53e8aef14U, 0x3e979b433dd05176U,
  0xbd3b37e93ea829bbU, 0x3e9ddefc3e4902b3U, 0xbeda189e3e1b485bU, 0x3dae94e33e136541U,
  0xbdde962f3c5fc3dcU, 0x3f15311b3e42d299U, 0xbca45e503ec89e1dU, 0xbdc25d9e3e331a33U,
  0x3ddaeedebe97e532U, 0xbe2be40f3e54b9afU, 0x3d297d3d3d95d46eU, 0xbf106bd8bd8c3319U,
  0x3d473cadbf08ecbeU, 0xbe8806d03e2a5d84U, 0x3dad1c9f3dcd0b39U, 0xbf04cc243e9e1660U,
  0x3dd4fcd5bf052d79U, 0xbee7f8ae3db65630U, 0x3e19e3c33e96b0cbU, 0xbebeeb993ebb6e1eU,
  0xbccd0d7b3e02eae9U, 0x3f02d43b3e8ba48bU, 0xbe9e77633f5179b1U, 0x3e0fa97f3dba0690U,
  0xbe110becbe7efa7aU, 0x3f09a6003ea9e36eU, 0xbd7d17cf3e7f3fbeU, 0xbe271e553e8b491aU,
  0xbe9b65093e4126a8U, 0x3e57af5b3eff8f4eU, 0xbe00c6de3f47451fU, 0x3e1c539d3cdd3f36U,
  0xbed2e0c03e86f359U, 0x3bd5cbc03ebf0e80U, 0xbe9836693e2e9f7bU, 0x3e95c4cc3edb1506U,
  0xbe5002d63e2aad17U, 0x3ea2de0cbe0ba135U, 0xbec170973f01fd26U, 0xbd054b393e17a259U,
  0xbea9935fbdf8dd89U, 0x3db0bf563f096d1fU, 0xbc5c3faa3f1fcd38U, 0x3e8c7e2d3d704d04U,
  0x3e26a2eb3f110fc2U, 0x3e8ec42f3e1a6804U, 0xbe11c38e3d18b95cU, 0x3f002e4a3e7415a7U,
  0xbc5f000d3eb82483U, 0xbd4d2d3d3d806959U, 0x3dcfec94bcadea8cU, 0x3f075c863e73076fU,
  0x3ee6942c3eaeb26dU, 0x3e9ca4383dc2bc69U, 0x3d49ef2c3d1e4710U, 0x3f230a7e3ebe1846U,
  0x3e38c3ef3e3e755bU, 0xbe438497bd4ea073U, 0x3ec61beabee4f5b2U, 0x3ede21d1be00bba9U,
  0x3edd238f3ea03066U, 0xbab5c7793ea4511aU, 0x3eeb225bbee670b3U, 0x3c6df5eb3d0dcabbU,
  0xbd248b073e1e279fU, 0x3e1ae71c3ef1d25aU, 0x3e9f2382bda470b5U, 0x3eef084a3d1a7748U,
  0x3d480c503e729095U, 0x3f2e93733e54ffbdU, 0x3db1a4803d4037b4U, 0x3ec8a4353ec3c991U,
  0x3e809df73d89ddeaU, 0x3ecb20043dc12431U, 0xbdb4bacf3a52a0b2U, 0x3eeee06f3eefd162U,
  0x3e542d623f291e5bU, 0x3f1a78603e4fa6bfU, 0x3e8bf461bc51bbfaU, 0x3e1874333e47bd60U,
  0x3da2ffd23e9ea8b1U, 0xbd2490583f2f6603U, 0x3ea885943eb99998U, 0x3ec878553d8f9e04U,
  0x3e2ea3123efbe18fU, 0x3ef544e93f1fa549U, 0x3e6fef8c3f1fb165U, 0xbbf90a0c3bda63aeU,
  0x3d295ab83e752ba1U, 0x3e068fe83f23b4a1U, 0x3e759a343ee3f97cU, 0x3e092b07bc4ed99aU,
  0x3d3b77bbbe6c60e8U, 0xbeb9b9a63c8f7072U, 0x3e735e923d9a9cf9U, 0x3d98b8debe6fdb83U,
  0x3d3bdf383e8cebc7U, 0xbe3c0846bda5085fU, 0x3f08560c3e5edd20U, 0x3df155cabd0b8ea7U,
  0x3eb998763e8d9269U, 0xbdcffb2c3e60640aU, 0x3f1e64bebef46d4fU, 0x3e2b99a4be80f1e9U,
  0xbe9924d5bd355a9fU, 0x3e776d74be4b9017U, 0xbd6cfa443ef9ba6cU, 0x3e42de5b3f2e416fU,
  0xbe54bda43dcea2e8U, 0x3e59eb76bdf16d6eU, 0xbed0aab43f10b019U, 0xbcf46a3a3f446f03U,
  0xbeb9cc883bdf38ccU, 0x3ee92da93bd4a3a5U, 0xbec308e03f06ce00U, 0x3e115f8a3f3856a6U,
  0x3e5fe7283ee6a060U, 0x3dc17c513da420c7U, 0xbdea557bbee8e53aU, 0xbe89c7fdbec280b5U,
  0xbe349b33beafa920U, 0xbe5a28643e279f1aU, 0xbe89a26fbe8a43aaU, 0x3eb2df2abeb0dfeeU,
  0x3ba8e7323c2fce0bU, 0xbddaaa8d3d9814feU, 0xbe4f9ef4be5c2b9aU, 0x3d9692bc3c36fe10U,
  0x3dbbc87e3eef6244U, 0x3cd88b8b3eae3bf9U, 0x3ec32cef3f06e862U, 0x3e87ff3d3e07c98aU,
  0x3ed397e93f1097a0U, 0x3f00b1a23eb5931eU, 0xbe2f6d3c3e395e0dU, 0x3f0a59fabbe544ddU,
  0x3cf6cb0c3db7e04aU, 0xbe1d0eb7be02f075U, 0x3c43a401bde24cb2U, 0x3edb9d86bc46e457U,
  0x3f1f61e5be2e64c2U, 0x3f1197083e55f93dU, 0x3f4655bebf5ae564U, 0x3f0514633f1ef1d6U,
  0x3f28e6b2bf0286bfU, 0xbd9b619b3f28b65eU, 0x3f09707b3f2a1943U, 0xbf0e758cbf48f9c3U,
  0xbeeb2c843edad255U, 0xbeaf0238bf272d0eU, 0xbef0115dbf2778bdU, 0xbf01b1babf0c88d8U,
  0xbe48ada93ee0a55dU, 0xbf2409fcbf3a037bU, 0xbe33e53d3ec4a3dcU, 0xbee9fc58bf6481c6U,
  0xbe67ee48bf28bf45U, 0xbf09be71bf7b7d83U, 0x3de523203f0ff263U, 0xbd29eebcbeb09fa7U,
  0xbf6c63333ed3daebU, 0x3ec608d53f12db65U, 0xbe7474c53ea1bed0U, 0x3e796faf3f0cd0beU,
  0x3f03e641bf0e9d29U, 0xbf22ad56bec1c5efU, 0xbec7562f3f00ac47U, 0xbe20e0b23e06b608U,
  0x3f2ee3683a48d1bcU, 0xbe6fb93fbd6e4219U, 0xbf366144bf17bfdcU, 0x3ef77aedbe90943eU,
  0xbe74cd7c3e74a552U, 0xbe8ef975bf482d61U, 0x3f08a521bee9a138U, 0x3ea8f6e63edf2206U,
  0x3ec3ba263ecf4344U, 0x3ed5b1dabf144744U, 0x3f0b314cbf350919U, 0x3e4041f1bf323030U,
  0xbf003d053d03f31eU, 0x3f3635413c82938cU, 0xbe5ee6d63f112cb3U, 0xbe9e207e3e453267U,
  0xbf1f4a593da36c21U, 0x3e48d606be1fc08eU, 0x3c8a700a3f02e9afU, 0xbe8003d2bf6042c8U,
  0x3eaad6e7bf04b85fU, 0x3c83f6253d67586eU, 0x3e62d2cdbe28acb3U, 0xbe89f34fbd0cd258U,
  0x3df7878eU,
};



AI_API_DECLARE_BEGIN

/*!
 * @brief Get network weights array pointer as a handle ptr.
 * @ingroup network_data
 * @return a ai_handle pointer to the weights array
 */
AI_DEPRECATED
AI_API_ENTRY
ai_handle ai_network_data_weights_get(void)
{
  static const ai_u8* const s_network_weights_map[1 + 2] = {
    AI_PTR(AI_MAGIC_MARKER),
    AI_PTR(s_network_weights_array_u64),
    AI_PTR(AI_MAGIC_MARKER)
  };

  return AI_HANDLE_PTR(s_network_weights_map);

}


/*!
 * @brief Get network params configuration data structure.
 * @ingroup network_data
 * @return true if a valid configuration is present, false otherwise
 */
AI_API_ENTRY
ai_bool ai_network_data_params_get(ai_handle network, ai_network_params* params)
{
  if (!(network && params)) return false;
  
  static ai_buffer s_network_data_map_activations[AI_NETWORK_DATA_ACTIVATIONS_COUNT] = {
    AI_BUFFER_OBJ_INIT(AI_BUFFER_FORMAT_U8, 1, 1, AI_NETWORK_DATA_ACTIVATIONS_SIZE, 1, NULL)
  };

  const ai_buffer_array map_activations = 
    AI_BUFFER_ARRAY_OBJ_INIT(AI_FLAG_NONE, AI_NETWORK_DATA_ACTIVATIONS_COUNT, s_network_data_map_activations);
  
  static ai_buffer s_network_data_map_weights[AI_NETWORK_DATA_WEIGHTS_COUNT] = {
    AI_BUFFER_OBJ_INIT(AI_BUFFER_FORMAT_U8, 1, 1, 7496, 1, s_network_weights_array_u64),
    
  };

  const ai_buffer_array map_weights = 
    AI_BUFFER_ARRAY_OBJ_INIT(AI_FLAG_NONE, AI_NETWORK_DATA_WEIGHTS_COUNT, s_network_data_map_weights);

  return ai_platform_bind_network_params(network, params, &map_weights, &map_activations);
}


AI_API_DECLARE_END
